<pad>	0
<unk>	0
<s>	0
</s>	0
<blank>	0
▁:	-0
▁::	-1
▁S	-2
ER	-3
▁R	-4
CO	-5
▁RE	-6
DI	-7
PE	-8
NG	-9
COR	-10
▁RECOR	-11
TE	-12
00	-13
▁SPE	-14
an	-15
KER	-16
AKER	-17
DING	-18
▁SPEAKER	-19
▁RECORDING	-20
ON	-21
▁E	-22
al	-23
▁G	-24
▁P	-25
ar	-26
AM	-27
-0	-28
AT	-29
▁T	-30
▁M	-31
NT	-32
ATI	-33
ATION	-34
AN	-35
on	-36
AL	-37
▁F	-38
▁K	-39
LA	-40
CE	-41
▁(	-42
▁TE	-43
ATE	-44
CT	-45
XT	-46
DER	-47
▁TEXT	-48
CATION	-49
te	-50
▁1	-51
kan	-52
kani	-53
onkani	-54
ter	-55
▁B	-56
OU	-57
CON	-58
RI	-59
it	-60
LI	-61
▁A	-62
▁D	-63
ed	-64
in	-65
LE	-66
▁C	-67
UE	-68
DU	-69
▁N	-70
▁I	-71
▁L	-72
GE	-73
▁DI	-74
ENT	-75
bit	-76
▁EDU	-77
:00	-78
YPE	-79
ale	-80
ine	-81
▁ID	-82
LACE	-83
MENT	-84
TENT	-85
▁CON	-86
▁TYPE	-87
▁PLACE	-88
▁CONTENT	-89
▁RECORDER	-90
▁EDUCATION	-91
at	-92
▁W	-93
and	-94
or	-95
▁Konkani	-96
TH	-97
▁2	-98
am	-99
▁O	-100
ol	-101
To	-102
oa	-103
▁Goa	-104
ch	-105
OA	-106
▁GOA	-107
▁SOU	-108
/2	-109
ALI	-110
50	-111
av	-112
AR	-113
ul	-114
ana	-115
ka	-116
AD	-117
ां	-118
▁16	-119
▁12	-120
ord	-121
▁Word	-122
000	-123
DE	-124
8.	-125
vana	-126
EL	-127
-09	-128
IR	-129
्य	-130
OL	-131
CH	-132
QUE	-133
kal	-134
gar	-135
em	-136
emale	-137
as	-138
sam	-139
RE	-140
▁ST	-141
ST	-142
▁PO	-143
▁AM	-144
UR	-145
4-	-146
▁BI	-147
ALE	-148
ANS	-149
VIR	-150
UA	-151
EN	-152
48.	-153
▁LA	-154
NGUE	-155
ANN	-156
▁CH	-157
▁OF	-158
▁al	-159
IL	-160
RY	-161
▁MAN	-162
▁MO	-163
gari	-164
pl	-165
DIR	-166
FA	-167
▁TO	-168
▁48.	-169
DED	-170
CM	-171
CY	-172
DC	-173
FI	-174
Hz	-175
PT	-176
QU	-177
SP	-178
eo	-179
AME	-180
AMP	-181
CRI	-182
ECH	-183
ILE	-184
LIT	-185
NCY	-186
OUP	-187
RCE	-188
Sch	-189
UFA	-190
WER	-191
kHz	-192
ple	-193
wav	-194
▁De	-195
▁EN	-196
▁GR	-197
▁QU	-198
▁SP	-199
▁TR	-200
-09)	-201
CTUR	-202
LING	-203
NGUA	-204
RICT	-205
THER	-206
bits	-207
edul	-208
tery	-209
▁24-	-210
▁AGE	-211
▁BIT	-212
▁Bat	-213
▁ELE	-214
▁FRE	-215
▁GEN	-216
▁LDC	-217
▁PCM	-218
▁Rol	-219
00000	-220
ALECT	-221
ALIFI	-222
ANNEL	-223
CRIPT	-224
DIROL	-225
LITER	-226
VIRON	-227
inear	-228
tereo	-229
▁DATE	-230
▁DIST	-231
▁FILE	-232
▁NAME	-233
▁RATE	-234
▁READ	-235
▁SAMP	-236
:00:00	-237
CTURER	-238
MENTRY	-239
NGUAGE	-240
QUENCY	-241
eduled	-242
kaline	-243
sample	-244
▁GROUP	-245
▁POWER	-246
▁STATE	-247
▁TRANS	-248
Konkani	-249
▁Devana	-250
▁EDIROL	-251
▁GENDER	-252
▁Linear	-253
▁MANUFA	-254
▁MOTHER	-255
▁Roland	-256
▁SCRIPT	-257
▁SOURCE	-258
▁SPEECH	-259
▁Stereo	-260
▁TONGUE	-261
▁Battery	-262
▁CHANNEL	-263
▁DIALECT	-264
▁ENVIRON	-265
▁QUALIFI	-266
Scheduled	-267
▁12:00:00	-268
▁48.00000	-269
▁DISTRICT	-270
▁LANGUAGE	-271
▁RECORDED	-272
▁SAMPLING	-273
▁alkaline	-274
LITERATION	-275
▁ELEMENTRY	-276
▁FREQUENCY	-277
▁Devanagari	-278
▁EDUCATIONAL	-279
▁ENVIRONMENT	-280
▁MANUFACTURER	-281
▁QUALIFICATION	-282
▁TRANSLITERATION	-283
▁k	-284
ce	-285
EM	-286
en	-287
yA	-288
-01	-289
ें	-290
▁s	-291
na	-292
om	-293
th	-294
▁p	-295
▁आ	-296
▁क	-297
ra	-298
▁t	-299
्या	-300
▁m	-301
21	-302
▁त	-303
▁स	-304
▁म	-305
ya	-306
st	-307
10	-308
▁प	-309
ha	-310
ta	-311
/20	-312
-00	-313
re	-314
ent	-315
ost	-316
qu	-317
requ	-318
▁Frequ	-319
▁Frequent	-320
50_	-321
-02	-322
hA	-323
▁21	-324
_21	-325
ार	-326
-03	-327
▁d	-328
▁v	-329
1_	-330
/2010	-331
▁Mas	-332
▁Master	-333
▁KAR	-334
▁व	-335
▁KARW	-336
▁and	-337
ve	-338
Female	-339
▁Female	-340
-04	-341
ff	-342
ffi	-343
ffice	-344
▁Office	-345
▁b	-346
bo	-347
bove	-348
▁j	-349
▁Kar	-350
▁H	-351
Male	-352
▁Male	-353
ome	-354
▁Home	-355
art	-356
▁ह	-357
tr	-358
va	-359
▁ज	-360
Part	-361
uth	-362
▁So	-363
▁SOUTH	-364
▁South	-365
▁द	-366
ाच	-367
ara	-368
▁Con	-369
omm	-370
trol	-371
ommand	-372
▁Words	-373
▁Control	-374
▁g	-375
Ac	-376
ame	-377
▁Name	-378
ात	-379
ata	-380
▁h	-381
ANA	-382
009	-383
लो	-384
/2009	-385
IM	-386
▁न	-387
▁n	-388
el	-389
ach	-390
elor	-391
▁Bach	-392
▁Bachelor	-393
da	-394
20	-395
kA	-396
्र	-397
ाक	-398
ten	-399
enten	-400
entence	-401
OR	-402
ca	-403
▁MA	-404
CONA	-405
▁CANA	-406
▁CANACONA	-407
Most	-408
▁Most	-409
2_	-410
▁MAR	-411
51	-412
्ह	-413
orth	-414
ORTH	-415
▁NORTH	-416
▁North	-417
ल्या	-418
ाव	-419
▁jA	-420
rA	-421
▁KARWAR	-422
ाय	-423
GA	-424
la	-425
GAO	-426
▁MARGAO	-427
▁ब	-428
▁अ	-429
rs	-430
नी	-431
51_	-432
atA	-433
pa	-434
ers	-435
nI	-436
erson	-437
▁MAJ	-438
ANI	-439
▁MAJALI	-440
▁10	-441
ARI	-442
Na	-443
Above	-444
▁Above	-445
▁र	-446
ली	-447
▁9	-448
ataka	-449
ान	-450
ONK	-451
▁KONK	-452
▁Karn	-453
▁KARWARI	-454
▁KONKANI	-455
▁Karnataka	-456
sh	-457
et	-458
war	-459
▁Karwar	-460
▁ग	-461
ांत	-462
aM	-463
ल्	-464
▁11	-465
लें	-466
/1	-467
anna	-468
annada	-469
▁Kannada	-470
▁ख	-471
ता	-472
▁l	-473
Da	-474
DA	-475
▁भ	-476
il	-477
▁V	-478
Command	-479
▁Command	-480
ga	-481
ash	-482
sa	-483
▁pa	-484
र्	-485
ून	-486
alyA	-487
▁उ	-488
16	-489
AMta	-490
▁म्ह	-491
▁9/2	-492
ma	-493
▁u	-494
Una	-495
स्	-496
▁कर	-497
Aka	-498
▁AnI	-499
alO	-500
PS	-501
▁GPS	-502
▁ल	-503
ull	-504
▁च	-505
Sentence	-506
▁Sentence	-507
▁श	-508
Set	-509
Full	-510
FullSet	-511
▁rA	-512
ीं	-513
ांच	-514
20_	-515
Ara	-516
AMc	-517
4_	-518
▁घ	-519
▁nA	-520
▁आनी	-521
▁As	-522
▁दि	-523
ill	-524
LIM	-525
▁आस	-526
▁10/	-527
_16	-528
yE	-529
ाम	-530
▁जा	-531
▁फ	-532
ले	-533
alEM	-534
▁sa	-535
▁ए	-536
ना	-537
ित	-538
▁c	-539
-016	-540
5_	-541
hE	-542
Ar	-543
un	-544
ेन	-545
िल्	-546
ja	-547
JIM	-548
ेव	-549
lace	-550
-000	-551
Person	-552
▁Person	-553
ाग	-554
-015	-555
-019	-556
ONDA	-557
ेर	-558
ic	-559
▁एक	-560
▁mha	-561
▁PONDA	-562
ion	-563
OM	-564
▁a	-565
कार	-566
hi	-567
7_	-568
▁di	-569
ंय	-570
Ata	-571
UM	-572
orm	-573
El	-574
ंक	-575
ct	-576
unct	-577
▁Funct	-578
▁Function	-579
▁ka	-580
क्	-581
▁य	-582
1-00	-583
▁kar	-584
1-02	-585
AS	-586
hu	-587
har	-588
▁11/1	-589
▁jAl	-590
▁वि	-591
Ta	-592
ाज	-593
Ag	-594
2.	-595
▁ना	-596
▁11/2	-597
2-0	-598
▁प्र	-599
▁ध	-600
OI	-601
ांव	-602
3.	-603
cEM	-604
▁आय	-605
Ana	-606
▁va	-607
▁‘	-608
▁kA	-609
cE	-610
yO	-611
5.	-612
yAM	-613
▁VAL	-614
all	-615
4.	-616
9.	-617
7.	-618
ाड	-619
vap	-620
▁VALP	-621
ांक	-622
cho	-623
chool	-624
▁School	-625
La	-626
ेळ	-627
▁को	-628
18	-629
anA	-630
1-01	-631
चें	-632
▁VALPOI	-633
▁आप	-634
स्त	-635
ुर	-636
UNa	-637
6.	-638
alE	-639
9/2009	-640
ाण	-641
ाल	-642
ाची	-643
▁hA	-644
1.	-645
alI	-646
cyA	-647
▁PAN	-648
▁PANJIM	-649
▁khA	-650
▁vi	-651
ंत	-652
ाचो	-653
3_	-654
kS	-655
ूण	-656
AcI	-657
री	-658
पाक	-659
tA	-660
▁sA	-661
ाका	-662
ाद	-663
ांग	-664
cO	-665
alan	-666
ally	-667
▁bhA	-668
5/2010	-669
ced	-670
hon	-671
etic	-672
▁Balan	-673
honetic	-674
▁Balanced	-675
honetically	-676
6_	-677
▁yE	-678
30	-679
▁saM	-680
्ट	-681
8_	-682
AcO	-683
▁तो	-684
▁ash	-685
9_	-686
▁r	-687
शें	-688
ोव	-689
NI	-690
▁kara	-691
AV	-692
uk	-693
kAra	-694
▁Ap	-695
ेच	-696
▁आम	-697
AcE	-698
NA	-699
tI	-700
▁12/	-701
क्ष	-702
तात	-703
▁tO	-704
▁Eka	-705
kAM	-706
cI	-707
ंग	-708
▁kit	-709
▁म्हण	-710
▁tE	-711
ाळ	-712
ती	-713
ास	-714
▁pr	-715
▁lAg	-716
▁ma	-717
त्	-718
▁tA	-719
hO	-720
▁कित	-721
▁VAS	-722
▁लाग	-723
▁ghE	-724
ur	-725
/2018	-726
5/2009	-727
ba	-728
▁VASCO	-729
UN	-730
UNCO	-731
▁CUNCO	-732
▁CUNCOLIM	-733
िक	-734
nA	-735
atAta	-736
-009	-737
arI	-738
ांनी	-739
्यो	-740
lO	-741
▁dis	-742
Place	-743
▁Place	-744
iM	-745
▁दिस	-746
rI	-747
ंद	-748
-0421	-749
ांय	-750
6/2010	-751
▁2/	-752
-010	-753
▁vA	-754
sha	-755
ीर	-756
2-	-757
-021	-758
-030	-759
▁मु	-760
shill	-761
▁AsA	-762
▁सो	-763
kha	-764
▁pA	-765
ाच्या	-766
ल्यान	-767
4/2010	-768
लीं	-769
▁12/1	-770
▁th	-771
▁के	-772
ल्यार	-773
च्या	-774
-003	-775
vA	-776
▁11/29/2009	-777
-06	-778
▁mA	-779
-08	-780
▁kEl	-781
▁इ	-782
yAra	-783
ाट	-784
▁sAM	-785
-07	-786
शिल्	-787
▁dE	-788
-004	-789
▁पर	-790
HI	-791
Form	-792
▁Form	-793
▁PANA	-794
haM	-795
▁mEL	-796
ीत	-797
▁आसा	-798
AMya	-799
ीक	-800
▁थ	-801
-05	-802
AcyA	-803
dh	-804
▁दु	-805
▁par	-806
ेत	-807
7/2010	-808
ava	-809
AMt	-810
-037	-811
pAka	-812
्व	-813
▁गो	-814
Ika	-815
-029	-816
-036	-817
▁Aya	-818
Ita	-819
▁kh	-820
-039	-821
-017	-822
vaM	-823
चो	-824
▁9/	-825
DO	-826
-014	-827
rE	-828
-026	-829
-038	-830
▁ni	-831
▁सं	-832
▁tEM	-833
-028	-834
▁11/15/2009	-835
-018	-836
▁	-837
E	-838
:	-839
R	-840
A	-841
a	-842
T	-843
N	-844
O	-845
I	-846
C	-847
D	-848
S	-849
P	-850
0	-851
e	-852
G	-853
L	-854
n	-855
M	-856
o	-857
t	-858
r	-859
U	-860
l	-861
K	-862
i	-863
-	-864
1	-865
k	-866
2	-867
F	-868
_	-869
ा	-870
d	-871
s	-872
W	-873
h	-874
H	-875
m	-876
c	-877
v	-878
Y	-879
.	-880
y	-881
4	-882
b	-883
u	-884
5	-885
ं	-886
)	-887
(	-888
/	-889
X	-890
्	-891
B	-892
र	-893
त	-894
p	-895
3	-896
9	-897
क	-898
े	-899
य	-900
6	-901
ल	-902
g	-903
Q	-904
8	-905
'	-906
न	-907
ी	-908
व	-909
स	-910
ो	-911
च	-912
प	-913
V	-914
म	-915
w	-916
ि	-917
,	-918
f	-919
z	-920
द	-921
7	-922
j	-923
ह	-924
आ	-925
ग	-926
ज	-927
श	-928
ण	-929
ड	-930
ु	-931
q	-932
ू	-933
ब	-934
ळ	-935
ट	-936
J	-937
ख	-938
भ	-939
अ	-940
ध	-941
उ	-942
घ	-943
फ	-944
ए	-945
थ	-946
?	-947
ष	-948
‘	-949
’	-950
ठ	-951
इ	-952
!	-953
झ	-954
ॅ	-955
x	-956
ऱ	-957
ॉ	-958
Z	-959
“	-960
ै	-961
”	-962
ृ	-963
ौ	-964
ओ	-965
ँ	-966
़	-967
–	-968
ढ	-969
ई	-970
छ	-971
ञ	-972
ऑ	-973
;	-974
ऊ	-975
ऐ	-976
%	-977
ङ	-978
ऋ	-979
ः	-980
औ	-981
९	-982
"	-983
̵	-984
ऽ	-985
१	-986
२	-987
*	-988
।	-989
—	-990
̶	-991
	-992
‍	-993
ऍ	-994
