{
  "char2idx": {
    "<pad>": 0,
    "<unk>": 1,
    "<s>": 2,
    "</s>": 3,
    "<blank>": 4,
    "▁:": 5,
    "▁::": 6,
    "▁S": 7,
    "ER": 8,
    "▁R": 9,
    "CO": 10,
    "▁RE": 11,
    "DI": 12,
    "PE": 13,
    "NG": 14,
    "COR": 15,
    "▁RECOR": 16,
    "TE": 17,
    "00": 18,
    "▁SPE": 19,
    "an": 20,
    "KER": 21,
    "AKER": 22,
    "DING": 23,
    "▁SPEAKER": 24,
    "▁RECORDING": 25,
    "ON": 26,
    "▁E": 27,
    "al": 28,
    "▁G": 29,
    "▁P": 30,
    "ar": 31,
    "AM": 32,
    "-0": 33,
    "AT": 34,
    "▁T": 35,
    "▁M": 36,
    "NT": 37,
    "ATI": 38,
    "ATION": 39,
    "AN": 40,
    "on": 41,
    "AL": 42,
    "▁F": 43,
    "▁K": 44,
    "LA": 45,
    "CE": 46,
    "▁(": 47,
    "▁TE": 48,
    "ATE": 49,
    "CT": 50,
    "XT": 51,
    "DER": 52,
    "▁TEXT": 53,
    "CATION": 54,
    "te": 55,
    "▁1": 56,
    "kan": 57,
    "kani": 58,
    "onkani": 59,
    "ter": 60,
    "▁B": 61,
    "OU": 62,
    "CON": 63,
    "RI": 64,
    "it": 65,
    "LI": 66,
    "▁A": 67,
    "▁D": 68,
    "ed": 69,
    "in": 70,
    "LE": 71,
    "▁C": 72,
    "UE": 73,
    "DU": 74,
    "▁N": 75,
    "▁I": 76,
    "▁L": 77,
    "GE": 78,
    "▁DI": 79,
    "ENT": 80,
    "bit": 81,
    "▁EDU": 82,
    ":00": 83,
    "YPE": 84,
    "ale": 85,
    "ine": 86,
    "▁ID": 87,
    "LACE": 88,
    "MENT": 89,
    "TENT": 90,
    "▁CON": 91,
    "▁TYPE": 92,
    "▁PLACE": 93,
    "▁CONTENT": 94,
    "▁RECORDER": 95,
    "▁EDUCATION": 96,
    "at": 97,
    "▁W": 98,
    "and": 99,
    "or": 100,
    "▁Konkani": 101,
    "TH": 102,
    "▁2": 103,
    "am": 104,
    "▁O": 105,
    "ol": 106,
    "To": 107,
    "oa": 108,
    "▁Goa": 109,
    "ch": 110,
    "OA": 111,
    "▁GOA": 112,
    "▁SOU": 113,
    "/2": 114,
    "ALI": 115,
    "50": 116,
    "av": 117,
    "AR": 118,
    "ul": 119,
    "ana": 120,
    "ka": 121,
    "AD": 122,
    "ां": 123,
    "▁16": 124,
    "▁12": 125,
    "ord": 126,
    "▁Word": 127,
    "000": 128,
    "DE": 129,
    "8.": 130,
    "vana": 131,
    "EL": 132,
    "-09": 133,
    "IR": 134,
    "्य": 135,
    "OL": 136,
    "CH": 137,
    "QUE": 138,
    "kal": 139,
    "gar": 140,
    "em": 141,
    "emale": 142,
    "as": 143,
    "sam": 144,
    "RE": 145,
    "▁ST": 146,
    "ST": 147,
    "▁PO": 148,
    "▁AM": 149,
    "UR": 150,
    "4-": 151,
    "▁BI": 152,
    "ALE": 153,
    "ANS": 154,
    "VIR": 155,
    "UA": 156,
    "EN": 157,
    "48.": 158,
    "▁LA": 159,
    "NGUE": 160,
    "ANN": 161,
    "▁CH": 162,
    "▁OF": 163,
    "▁al": 164,
    "IL": 165,
    "RY": 166,
    "▁MAN": 167,
    "▁MO": 168,
    "gari": 169,
    "pl": 170,
    "DIR": 171,
    "FA": 172,
    "▁TO": 173,
    "▁48.": 174,
    "DED": 175,
    "CM": 176,
    "CY": 177,
    "DC": 178,
    "FI": 179,
    "Hz": 180,
    "PT": 181,
    "QU": 182,
    "SP": 183,
    "eo": 184,
    "AME": 185,
    "AMP": 186,
    "CRI": 187,
    "ECH": 188,
    "ILE": 189,
    "LIT": 190,
    "NCY": 191,
    "OUP": 192,
    "RCE": 193,
    "Sch": 194,
    "UFA": 195,
    "WER": 196,
    "kHz": 197,
    "ple": 198,
    "wav": 199,
    "▁De": 200,
    "▁EN": 201,
    "▁GR": 202,
    "▁QU": 203,
    "▁SP": 204,
    "▁TR": 205,
    "-09)": 206,
    "CTUR": 207,
    "LING": 208,
    "NGUA": 209,
    "RICT": 210,
    "THER": 211,
    "bits": 212,
    "edul": 213,
    "tery": 214,
    "▁24-": 215,
    "▁AGE": 216,
    "▁BIT": 217,
    "▁Bat": 218,
    "▁ELE": 219,
    "▁FRE": 220,
    "▁GEN": 221,
    "▁LDC": 222,
    "▁PCM": 223,
    "▁Rol": 224,
    "00000": 225,
    "ALECT": 226,
    "ALIFI": 227,
    "ANNEL": 228,
    "CRIPT": 229,
    "DIROL": 230,
    "LITER": 231,
    "VIRON": 232,
    "inear": 233,
    "tereo": 234,
    "▁DATE": 235,
    "▁DIST": 236,
    "▁FILE": 237,
    "▁NAME": 238,
    "▁RATE": 239,
    "▁READ": 240,
    "▁SAMP": 241,
    ":00:00": 242,
    "CTURER": 243,
    "MENTRY": 244,
    "NGUAGE": 245,
    "QUENCY": 246,
    "eduled": 247,
    "kaline": 248,
    "sample": 249,
    "▁GROUP": 250,
    "▁POWER": 251,
    "▁STATE": 252,
    "▁TRANS": 253,
    "Konkani": 254,
    "▁Devana": 255,
    "▁EDIROL": 256,
    "▁GENDER": 257,
    "▁Linear": 258,
    "▁MANUFA": 259,
    "▁MOTHER": 260,
    "▁Roland": 261,
    "▁SCRIPT": 262,
    "▁SOURCE": 263,
    "▁SPEECH": 264,
    "▁Stereo": 265,
    "▁TONGUE": 266,
    "▁Battery": 267,
    "▁CHANNEL": 268,
    "▁DIALECT": 269,
    "▁ENVIRON": 270,
    "▁QUALIFI": 271,
    "Scheduled": 272,
    "▁12:00:00": 273,
    "▁48.00000": 274,
    "▁DISTRICT": 275,
    "▁LANGUAGE": 276,
    "▁RECORDED": 277,
    "▁SAMPLING": 278,
    "▁alkaline": 279,
    "LITERATION": 280,
    "▁ELEMENTRY": 281,
    "▁FREQUENCY": 282,
    "▁Devanagari": 283,
    "▁EDUCATIONAL": 284,
    "▁ENVIRONMENT": 285,
    "▁MANUFACTURER": 286,
    "▁QUALIFICATION": 287,
    "▁TRANSLITERATION": 288,
    "▁k": 289,
    "ce": 290,
    "EM": 291,
    "en": 292,
    "yA": 293,
    "-01": 294,
    "ें": 295,
    "▁s": 296,
    "na": 297,
    "om": 298,
    "th": 299,
    "▁p": 300,
    "▁आ": 301,
    "▁क": 302,
    "ra": 303,
    "▁t": 304,
    "्या": 305,
    "▁m": 306,
    "21": 307,
    "▁त": 308,
    "▁स": 309,
    "▁म": 310,
    "ya": 311,
    "st": 312,
    "10": 313,
    "▁प": 314,
    "ha": 315,
    "ta": 316,
    "/20": 317,
    "-00": 318,
    "re": 319,
    "ent": 320,
    "ost": 321,
    "qu": 322,
    "requ": 323,
    "▁Frequ": 324,
    "▁Frequent": 325,
    "50_": 326,
    "-02": 327,
    "hA": 328,
    "▁21": 329,
    "_21": 330,
    "ार": 331,
    "-03": 332,
    "▁d": 333,
    "▁v": 334,
    "1_": 335,
    "/2010": 336,
    "▁Mas": 337,
    "▁Master": 338,
    "▁KAR": 339,
    "▁व": 340,
    "▁KARW": 341,
    "▁and": 342,
    "ve": 343,
    "Female": 344,
    "▁Female": 345,
    "-04": 346,
    "ff": 347,
    "ffi": 348,
    "ffice": 349,
    "▁Office": 350,
    "▁b": 351,
    "bo": 352,
    "bove": 353,
    "▁j": 354,
    "▁Kar": 355,
    "▁H": 356,
    "Male": 357,
    "▁Male": 358,
    "ome": 359,
    "▁Home": 360,
    "art": 361,
    "▁ह": 362,
    "tr": 363,
    "va": 364,
    "▁ज": 365,
    "Part": 366,
    "uth": 367,
    "▁So": 368,
    "▁SOUTH": 369,
    "▁South": 370,
    "▁द": 371,
    "ाच": 372,
    "ara": 373,
    "▁Con": 374,
    "omm": 375,
    "trol": 376,
    "ommand": 377,
    "▁Words": 378,
    "▁Control": 379,
    "▁g": 380,
    "Ac": 381,
    "ame": 382,
    "▁Name": 383,
    "ात": 384,
    "ata": 385,
    "▁h": 386,
    "ANA": 387,
    "009": 388,
    "लो": 389,
    "/2009": 390,
    "IM": 391,
    "▁न": 392,
    "▁n": 393,
    "el": 394,
    "ach": 395,
    "elor": 396,
    "▁Bach": 397,
    "▁Bachelor": 398,
    "da": 399,
    "20": 400,
    "kA": 401,
    "्र": 402,
    "ाक": 403,
    "ten": 404,
    "enten": 405,
    "entence": 406,
    "OR": 407,
    "ca": 408,
    "▁MA": 409,
    "CONA": 410,
    "▁CANA": 411,
    "▁CANACONA": 412,
    "Most": 413,
    "▁Most": 414,
    "2_": 415,
    "▁MAR": 416,
    "51": 417,
    "्ह": 418,
    "orth": 419,
    "ORTH": 420,
    "▁NORTH": 421,
    "▁North": 422,
    "ल्या": 423,
    "ाव": 424,
    "▁jA": 425,
    "rA": 426,
    "▁KARWAR": 427,
    "ाय": 428,
    "GA": 429,
    "la": 430,
    "GAO": 431,
    "▁MARGAO": 432,
    "▁ब": 433,
    "▁अ": 434,
    "rs": 435,
    "नी": 436,
    "51_": 437,
    "atA": 438,
    "pa": 439,
    "ers": 440,
    "nI": 441,
    "erson": 442,
    "▁MAJ": 443,
    "ANI": 444,
    "▁MAJALI": 445,
    "▁10": 446,
    "ARI": 447,
    "Na": 448,
    "Above": 449,
    "▁Above": 450,
    "▁र": 451,
    "ली": 452,
    "▁9": 453,
    "ataka": 454,
    "ान": 455,
    "ONK": 456,
    "▁KONK": 457,
    "▁Karn": 458,
    "▁KARWARI": 459,
    "▁KONKANI": 460,
    "▁Karnataka": 461,
    "sh": 462,
    "et": 463,
    "war": 464,
    "▁Karwar": 465,
    "▁ग": 466,
    "ांत": 467,
    "aM": 468,
    "ल्": 469,
    "▁11": 470,
    "लें": 471,
    "/1": 472,
    "anna": 473,
    "annada": 474,
    "▁Kannada": 475,
    "▁ख": 476,
    "ता": 477,
    "▁l": 478,
    "Da": 479,
    "DA": 480,
    "▁भ": 481,
    "il": 482,
    "▁V": 483,
    "Command": 484,
    "▁Command": 485,
    "ga": 486,
    "ash": 487,
    "sa": 488,
    "▁pa": 489,
    "र्": 490,
    "ून": 491,
    "alyA": 492,
    "▁उ": 493,
    "16": 494,
    "AMta": 495,
    "▁म्ह": 496,
    "▁9/2": 497,
    "ma": 498,
    "▁u": 499,
    "Una": 500,
    "स्": 501,
    "▁कर": 502,
    "Aka": 503,
    "▁AnI": 504,
    "alO": 505,
    "PS": 506,
    "▁GPS": 507,
    "▁ल": 508,
    "ull": 509,
    "▁च": 510,
    "Sentence": 511,
    "▁Sentence": 512,
    "▁श": 513,
    "Set": 514,
    "Full": 515,
    "FullSet": 516,
    "▁rA": 517,
    "ीं": 518,
    "ांच": 519,
    "20_": 520,
    "Ara": 521,
    "AMc": 522,
    "4_": 523,
    "▁घ": 524,
    "▁nA": 525,
    "▁आनी": 526,
    "▁As": 527,
    "▁दि": 528,
    "ill": 529,
    "LIM": 530,
    "▁आस": 531,
    "▁10/": 532,
    "_16": 533,
    "yE": 534,
    "ाम": 535,
    "▁जा": 536,
    "▁फ": 537,
    "ले": 538,
    "alEM": 539,
    "▁sa": 540,
    "▁ए": 541,
    "ना": 542,
    "ित": 543,
    "▁c": 544,
    "-016": 545,
    "5_": 546,
    "hE": 547,
    "Ar": 548,
    "un": 549,
    "ेन": 550,
    "िल्": 551,
    "ja": 552,
    "JIM": 553,
    "ेव": 554,
    "lace": 555,
    "-000": 556,
    "Person": 557,
    "▁Person": 558,
    "ाग": 559,
    "-015": 560,
    "-019": 561,
    "ONDA": 562,
    "ेर": 563,
    "ic": 564,
    "▁एक": 565,
    "▁mha": 566,
    "▁PONDA": 567,
    "ion": 568,
    "OM": 569,
    "▁a": 570,
    "कार": 571,
    "hi": 572,
    "7_": 573,
    "▁di": 574,
    "ंय": 575,
    "Ata": 576,
    "UM": 577,
    "orm": 578,
    "El": 579,
    "ंक": 580,
    "ct": 581,
    "unct": 582,
    "▁Funct": 583,
    "▁Function": 584,
    "▁ka": 585,
    "क्": 586,
    "▁य": 587,
    "1-00": 588,
    "▁kar": 589,
    "1-02": 590,
    "AS": 591,
    "hu": 592,
    "har": 593,
    "▁11/1": 594,
    "▁jAl": 595,
    "▁वि": 596,
    "Ta": 597,
    "ाज": 598,
    "Ag": 599,
    "2.": 600,
    "▁ना": 601,
    "▁11/2": 602,
    "2-0": 603,
    "▁प्र": 604,
    "▁ध": 605,
    "OI": 606,
    "ांव": 607,
    "3.": 608,
    "cEM": 609,
    "▁आय": 610,
    "Ana": 611,
    "▁va": 612,
    "▁‘": 613,
    "▁kA": 614,
    "cE": 615,
    "yO": 616,
    "5.": 617,
    "yAM": 618,
    "▁VAL": 619,
    "all": 620,
    "4.": 621,
    "9.": 622,
    "7.": 623,
    "ाड": 624,
    "vap": 625,
    "▁VALP": 626,
    "ांक": 627,
    "cho": 628,
    "chool": 629,
    "▁School": 630,
    "La": 631,
    "ेळ": 632,
    "▁को": 633,
    "18": 634,
    "anA": 635,
    "1-01": 636,
    "चें": 637,
    "▁VALPOI": 638,
    "▁आप": 639,
    "स्त": 640,
    "ुर": 641,
    "UNa": 642,
    "6.": 643,
    "alE": 644,
    "9/2009": 645,
    "ाण": 646,
    "ाल": 647,
    "ाची": 648,
    "▁hA": 649,
    "1.": 650,
    "alI": 651,
    "cyA": 652,
    "▁PAN": 653,
    "▁PANJIM": 654,
    "▁khA": 655,
    "▁vi": 656,
    "ंत": 657,
    "ाचो": 658,
    "3_": 659,
    "kS": 660,
    "ूण": 661,
    "AcI": 662,
    "री": 663,
    "पाक": 664,
    "tA": 665,
    "▁sA": 666,
    "ाका": 667,
    "ाद": 668,
    "ांग": 669,
    "cO": 670,
    "alan": 671,
    "ally": 672,
    "▁bhA": 673,
    "5/2010": 674,
    "ced": 675,
    "hon": 676,
    "etic": 677,
    "▁Balan": 678,
    "honetic": 679,
    "▁Balanced": 680,
    "honetically": 681,
    "6_": 682,
    "▁yE": 683,
    "30": 684,
    "▁saM": 685,
    "्ट": 686,
    "8_": 687,
    "AcO": 688,
    "▁तो": 689,
    "▁ash": 690,
    "9_": 691,
    "▁r": 692,
    "शें": 693,
    "ोव": 694,
    "NI": 695,
    "▁kara": 696,
    "AV": 697,
    "uk": 698,
    "kAra": 699,
    "▁Ap": 700,
    "ेच": 701,
    "▁आम": 702,
    "AcE": 703,
    "NA": 704,
    "tI": 705,
    "▁12/": 706,
    "क्ष": 707,
    "तात": 708,
    "▁tO": 709,
    "▁Eka": 710,
    "kAM": 711,
    "cI": 712,
    "ंग": 713,
    "▁kit": 714,
    "▁म्हण": 715,
    "▁tE": 716,
    "ाळ": 717,
    "ती": 718,
    "ास": 719,
    "▁pr": 720,
    "▁lAg": 721,
    "▁ma": 722,
    "त्": 723,
    "▁tA": 724,
    "hO": 725,
    "▁कित": 726,
    "▁VAS": 727,
    "▁लाग": 728,
    "▁ghE": 729,
    "ur": 730,
    "/2018": 731,
    "5/2009": 732,
    "ba": 733,
    "▁VASCO": 734,
    "UN": 735,
    "UNCO": 736,
    "▁CUNCO": 737,
    "▁CUNCOLIM": 738,
    "िक": 739,
    "nA": 740,
    "atAta": 741,
    "-009": 742,
    "arI": 743,
    "ांनी": 744,
    "्यो": 745,
    "lO": 746,
    "▁dis": 747,
    "Place": 748,
    "▁Place": 749,
    "iM": 750,
    "▁दिस": 751,
    "rI": 752,
    "ंद": 753,
    "-0421": 754,
    "ांय": 755,
    "6/2010": 756,
    "▁2/": 757,
    "-010": 758,
    "▁vA": 759,
    "sha": 760,
    "ीर": 761,
    "2-": 762,
    "-021": 763,
    "-030": 764,
    "▁मु": 765,
    "shill": 766,
    "▁AsA": 767,
    "▁सो": 768,
    "kha": 769,
    "▁pA": 770,
    "ाच्या": 771,
    "ल्यान": 772,
    "4/2010": 773,
    "लीं": 774,
    "▁12/1": 775,
    "▁th": 776,
    "▁के": 777,
    "ल्यार": 778,
    "च्या": 779,
    "-003": 780,
    "vA": 781,
    "▁11/29/2009": 782,
    "-06": 783,
    "▁mA": 784,
    "-08": 785,
    "▁kEl": 786,
    "▁इ": 787,
    "yAra": 788,
    "ाट": 789,
    "▁sAM": 790,
    "-07": 791,
    "शिल्": 792,
    "▁dE": 793,
    "-004": 794,
    "▁पर": 795,
    "HI": 796,
    "Form": 797,
    "▁Form": 798,
    "▁PANA": 799,
    "haM": 800,
    "▁mEL": 801,
    "ीत": 802,
    "▁आसा": 803,
    "AMya": 804,
    "ीक": 805,
    "▁थ": 806,
    "-05": 807,
    "AcyA": 808,
    "dh": 809,
    "▁दु": 810,
    "▁par": 811,
    "ेत": 812,
    "7/2010": 813,
    "ava": 814,
    "AMt": 815,
    "-037": 816,
    "pAka": 817,
    "्व": 818,
    "▁गो": 819,
    "Ika": 820,
    "-029": 821,
    "-036": 822,
    "▁Aya": 823,
    "Ita": 824,
    "▁kh": 825,
    "-039": 826,
    "-017": 827,
    "vaM": 828,
    "चो": 829,
    "▁9/": 830,
    "DO": 831,
    "-014": 832,
    "rE": 833,
    "-026": 834,
    "-038": 835,
    "▁ni": 836,
    "▁सं": 837,
    "▁tEM": 838,
    "-028": 839,
    "▁11/15/2009": 840,
    "-018": 841,
    "▁": 842,
    "E": 843,
    ":": 844,
    "R": 845,
    "A": 846,
    "a": 847,
    "T": 848,
    "N": 849,
    "O": 850,
    "I": 851,
    "C": 852,
    "D": 853,
    "S": 854,
    "P": 855,
    "0": 856,
    "e": 857,
    "G": 858,
    "L": 859,
    "n": 860,
    "M": 861,
    "o": 862,
    "t": 863,
    "r": 864,
    "U": 865,
    "l": 866,
    "K": 867,
    "i": 868,
    "-": 869,
    "1": 870,
    "k": 871,
    "2": 872,
    "F": 873,
    "_": 874,
    "ा": 875,
    "d": 876,
    "s": 877,
    "W": 878,
    "h": 879,
    "H": 880,
    "m": 881,
    "c": 882,
    "v": 883,
    "Y": 884,
    ".": 885,
    "y": 886,
    "4": 887,
    "b": 888,
    "u": 889,
    "5": 890,
    "ं": 891,
    ")": 892,
    "(": 893,
    "/": 894,
    "X": 895,
    "्": 896,
    "B": 897,
    "र": 898,
    "त": 899,
    "p": 900,
    "3": 901,
    "9": 902,
    "क": 903,
    "े": 904,
    "य": 905,
    "6": 906,
    "ल": 907,
    "g": 908,
    "Q": 909,
    "8": 910,
    "'": 911,
    "न": 912,
    "ी": 913,
    "व": 914,
    "स": 915,
    "ो": 916,
    "च": 917,
    "प": 918,
    "V": 919,
    "म": 920,
    "w": 921,
    "ि": 922,
    ",": 923,
    "f": 924,
    "z": 925,
    "द": 926,
    "7": 927,
    "j": 928,
    "ह": 929,
    "आ": 930,
    "ग": 931,
    "ज": 932,
    "श": 933,
    "ण": 934,
    "ड": 935,
    "ु": 936,
    "q": 937,
    "ू": 938,
    "ब": 939,
    "ळ": 940,
    "ट": 941,
    "J": 942,
    "ख": 943,
    "भ": 944,
    "अ": 945,
    "ध": 946,
    "उ": 947,
    "घ": 948,
    "फ": 949,
    "ए": 950,
    "थ": 951,
    "?": 952,
    "ष": 953,
    "‘": 954,
    "’": 955,
    "ठ": 956,
    "इ": 957,
    "!": 958,
    "झ": 959,
    "ॅ": 960,
    "x": 961,
    "ऱ": 962,
    "ॉ": 963,
    "Z": 964,
    "“": 965,
    "ै": 966,
    "”": 967,
    "ृ": 968,
    "ौ": 969,
    "ओ": 970,
    "ँ": 971,
    "़": 972,
    "–": 973,
    "ढ": 974,
    "ई": 975,
    "छ": 976,
    "ञ": 977,
    "ऑ": 978,
    ";": 979,
    "ऊ": 980,
    "ऐ": 981,
    "%": 982,
    "ङ": 983,
    "ऋ": 984,
    "ः": 985,
    "औ": 986,
    "९": 987,
    "\"": 988,
    "̵": 989,
    "ऽ": 990,
    "१": 991,
    "२": 992,
    "*": 993,
    "।": 994,
    "—": 995,
    "̶": 996,
    "": 997,
    "‍": 998,
    "ऍ": 999
  }
}