{
  "vocab_size": 500,
  "blank_id": 0,
  "model_path": "data/bpe_tokenizer/konkani_bpe.model",
  "piece2id": {
    "<pad>": 0,
    "<unk>": 1,
    "<s>": 2,
    "</s>": 3,
    "<blank>": 4,
    "▁स": 5,
    "या": 6,
    "ें": 7,
    "▁क": 8,
    "▁आ": 9,
    "ां": 10,
    "▁प": 11,
    "▁म": 12,
    "्या": 13,
    "ता": 14,
    "▁व": 15,
    "ार": 16,
    "▁द": 17,
    "्र": 18,
    "▁ज": 19,
    "▁न": 20,
    "▁र": 21,
    "लो": 22,
    "▁ह": 23,
    "ाव": 24,
    "▁ब": 25,
    "ाच": 26,
    "▁ग": 27,
    "ाक": 28,
    "्ह": 29,
    "▁त": 30,
    "ान": 31,
    "▁अ": 32,
    "▁श": 33,
    "ाय": 34,
    "▁च": 35,
    "▁भ": 36,
    "ल्": 37,
    "▁उ": 38,
    "ात": 39,
    "्त": 40,
    "ाम": 41,
    "▁ए": 42,
    "▁कर": 43,
    "▁ख": 44,
    "ाल": 45,
    "▁ल": 46,
    "▁घ": 47,
    "नी": 48,
    "चें": 49,
    "▁एक": 50,
    "▁दि": 51,
    "▁फ": 52,
    "ली": 53,
    "▁म्ह": 54,
    "▁आय": 55,
    "सा": 56,
    "लें": 57,
    "र्": 58,
    "ेव": 59,
    "ल्या": 60,
    "ों": 61,
    "चो": 62,
    "ीस": 63,
    "ाग": 64,
    "ास": 65,
    "्व": 66,
    "िक": 67,
    "ुर": 68,
    "न्": 69,
    "▁प्र": 70,
    "ना": 71,
    "ांत": 72,
    "तात": 73,
    "गळ": 74,
    "्ष": 75,
    "ंग": 76,
    "िल्": 77,
    "ोव": 78,
    "री": 79,
    "▁य": 80,
    "ंद": 81,
    "▁आम": 82,
    "ंत": 83,
    "च्या": 84,
    "ाळ": 85,
    "ांव": 86,
    "कार": 87,
    "ित": 88,
    "ाज": 89,
    "▁सगळ": 90,
    "ाड": 91,
    "ेर": 92,
    "ाची": 93,
    "पाक": 94,
    "ेश": 95,
    "▁वि": 96,
    "्ट": 97,
    "ून": 98,
    "▁आनी": 99,
    "▁सि": 100,
    "▁सो": 101,
    "ीं": 102,
    "▁ता": 103,
    "▁मन": 104,
    "▁ध": 105,
    "▁सगळ्या": 106,
    "▁जा": 107,
    "ाद": 108,
    "ंय": 109,
    "ाचो": 110,
    "ंक": 111,
    "ले": 112,
    "▁बर": 113,
    "▁जाल": 114,
    "ीन": 115,
    "्य": 116,
    "ांग": 117,
    "ची": 118,
    "ोर": 119,
    "ावन": 120,
    "ीत": 121,
    "ाप": 122,
    "▁वच": 123,
    "▁आसा": 124,
    "▁लाग": 125,
    "▁पर": 126,
    "▁थ": 127,
    "▁सु": 128,
    "▁ना": 129,
    "ंड": 130,
    "त्त": 131,
    "िव": 132,
    "▁के": 133,
    "▁दिस": 134,
    "▁राम": 135,
    "स्त": 136,
    "▁आयज": 137,
    "ोड": 138,
    "▁व्ह": 139,
    "ेळ": 140,
    "▁इ": 141,
    "ेन": 142,
    "ाका": 143,
    "चे": 144,
    "▁आप": 145,
    "णव": 146,
    "▁पाव": 147,
    "िर": 148,
    "ेत": 149,
    "▁दु": 150,
    "▁गों": 151,
    "▁न्ह": 152,
    "स्": 153,
    "ती": 154,
    "▁आव": 155,
    "क्ष": 156,
    "णी": 157,
    "्द": 158,
    "ंब": 159,
    "▁काम": 160,
    "मा": 161,
    "▁म्हज": 162,
    "▁आश": 163,
    "▁दो": 164,
    "्यार": 165,
    "▁आस": 166,
    "▁राव": 167,
    "ंत्र": 168,
    "▁व्हड": 169,
    "▁लो": 170,
    "▁करता": 171,
    "यात": 172,
    "कां": 173,
    "साद": 174,
    "▁हो": 175,
    "▁मो": 176,
    "▁सा": 177,
    "▁सिं": 178,
    "▁स्व": 179,
    "को": 180,
    "▁सर": 181,
    "▁सिंह": 182,
    "▁पळ": 183,
    "ायक": 184,
    "ाच्या": 185,
    "▁घर": 186,
    "▁आशिल्": 187,
    "न्द": 188,
    "▁प्रसाद": 189,
    "ुल": 190,
    "▁रू": 191,
    "▁पय": 192,
    "▁मु": 193,
    "न्ना": 194,
    "▁चल": 195,
    "ीक": 196,
    "▁राज": 197,
    "शें": 198,
    "▁दीस": 199,
    "▁गोंय": 200,
    "कर": 201,
    "िस": 202,
    "▁आमी": 203,
    "टा": 204,
    "रि": 205,
    "यतात": 206,
    "▁उप": 207,
    "▁ये": 208,
    "▁वा": 209,
    "▁जाय": 210,
    "▁कु": 211,
    "▁कित": 212,
    "▁पड": 213,
    "िक्ष": 214,
    "ांच": 215,
    "▁को": 216,
    "ांनी": 217,
    "ुरग": 218,
    "▁झ": 219,
    "▁मह": 220,
    "त्": 221,
    "▁देव": 222,
    "▁दिसता": 223,
    "ांब": 224,
    "िश": 225,
    "▁सांग": 226,
    "▁खू": 227,
    "िन": 228,
    "रो": 229,
    "णें": 230,
    "ाब": 231,
    "तंत्र": 232,
    "▁चव": 233,
    "ताय": 234,
    "्याक": 235,
    "▁खूब": 236,
    "▁भुरग": 237,
    "ोवप": 238,
    "▁घेव": 239,
    "▁कितें": 240,
    "ंव": 241,
    "शीं": 242,
    "▁म्हज्या": 243,
    "ोंक": 244,
    "्री": 245,
    "रा": 246,
    "ला": 247,
    "▁मनयतात": 248,
    "▁उद": 249,
    "ोंकणी": 250,
    "▁पु": 251,
    "शी": 252,
    "ाट": 253,
    "ेक": 254,
    "▁स्वतंत्र": 255,
    "▁हां": 256,
    "▁आमचो": 257,
    "▁नि": 258,
    "▁दिव": 259,
    "श्ट": 260,
    "▁बरें": 261,
    "ावप": 262,
    "▁करून": 263,
    "▁ट": 264,
    "▁बस": 265,
    "▁दोन": 266,
    "यो": 267,
    "ेस": 268,
    "बीत": 269,
    "▁सोबीत": 270,
    "▁मार": 271,
    "▁नायक": 272,
    "▁करप": 273,
    "ेट": 274,
    "सो": 275,
    "▁सद": 276,
    "ंज": 277,
    "ण्": 278,
    "▁सक": 279,
    "▁ओ": 280,
    "▁कें": 281,
    "▁जावन": 282,
    "रण": 283,
    "▁स्वतंत्रताय": 284,
    "ेल": 285,
    "▁गे": 286,
    "ाळीस": 287,
    "ारी": 288,
    "वी": 289,
    "ांय": 290,
    "▁पावस": 291,
    "वें": 292,
    "ेच": 293,
    "▁साम": 294,
    "तालो": 295,
    "डप": 296,
    "रिख": 297,
    "न्द्र": 298,
    "▁तारिख": 299,
    "▁तो": 300,
    "्ठ": 301,
    "▁णव": 302,
    "▁मे": 303,
    "▁केंन्ना": 304,
    "▁सात": 305,
    "ेंच": 306,
    "्म": 307,
    "यान": 308,
    "रांत": 309,
    "▁म्हाका": 310,
    "▁ड": 311,
    "ल्यान": 312,
    "▁न्हय": 313,
    "▁लागता": 314,
    "▁कोंकणी": 315,
    "▁म्हण": 316,
    "वर": 317,
    "ेम": 318,
    "मान": 319,
    "▁घेत": 320,
    "त्तर": 321,
    "ुण": 322,
    "▁जाता": 323,
    "ेग": 324,
    "▁घेवन": 325,
    "कत": 326,
    "दी": 327,
    "▁हु": 328,
    "▁त्र": 329,
    "ोवचें": 330,
    "▁ठ": 331,
    "लीं": 332,
    "▁नाका": 333,
    "▁पि": 334,
    "ण्णव": 335,
    "▁साह": 336,
    "▁ति": 337,
    "▁भार": 338,
    "▁हांव": 339,
    "पी": 340,
    "भर": 341,
    "ेंव": 342,
    "्वर": 343,
    "ाचें": 344,
    "जो": 345,
    "द्द": 346,
    "▁पो": 347,
    "▁कोण": 348,
    "ल्ल्या": 349,
    "▁आशिल्लो": 350,
    "रप": 351,
    "▁आयलो": 352,
    "▁पं": 353,
    "▁जेव": 354,
    "▁आवड": 355,
    "ंबर": 356,
    "▁सिन": 357,
    "ेख": 358,
    "का": 359,
    "▁मेळ": 360,
    "▁सगळ्यात": 361,
    "▁अभ": 362,
    "▁वळ": 363,
    "▁सदांच": 364,
    "ाख": 365,
    "ूं": 366,
    "▁अशें": 367,
    "सठ": 368,
    "▁सव": 369,
    "▁करतात": 370,
    "▁खाव": 371,
    "मार": 372,
    "ाण": 373,
    "ूर": 374,
    "▁आपल्या": 375,
    "ति": 376,
    "लां": 377,
    "▁पुर": 378,
    "र्व": 379,
    "▁आयिल्": 380,
    "▁गण": 381,
    "मळ": 382,
    "प्": 383,
    "▁वच्": 384,
    "ळें": 385,
    "▁शिक्ष": 386,
    "▁वर्": 387,
    "▁हें": 388,
    "ेद": 389,
    "▁आसता": 390,
    "ेचाळीस": 391,
    "▁शिव": 392,
    "▁लोकां": 393,
    "च्": 394,
    "ीर": 395,
    "ाचे": 396,
    "ायण": 397,
    "▁सां": 398,
    "ंदर": 399,
    "ल्लो": 400,
    "▁काळ": 401,
    "्हा": 402,
    "चेर": 403,
    "▁अठ": 404,
    "▁ते": 405,
    "▁फकत": 406,
    "▁खेळ": 407,
    "▁तें": 408,
    "ंयशीं": 409,
    "ूण": 410,
    "▁मा": 411,
    "▁फाव": 412,
    "▁एकुण": 413,
    "▁सिन्हा": 414,
    "मर": 415,
    "्ण": 416,
    "▁": 417,
    "ा": 418,
    "र": 419,
    "्": 420,
    "ं": 421,
    "त": 422,
    "क": 423,
    "े": 424,
    "व": 425,
    "य": 426,
    "स": 427,
    "न": 428,
    "ल": 429,
    "ो": 430,
    "प": 431,
    "ी": 432,
    "म": 433,
    "च": 434,
    "ि": 435,
    "द": 436,
    "ग": 437,
    ".": 438,
    "ह": 439,
    "ज": 440,
    "श": 441,
    "आ": 442,
    "ब": 443,
    "ु": 444,
    "ड": 445,
    "ण": 446,
    "ळ": 447,
    "ू": 448,
    "ट": 449,
    "ख": 450,
    "भ": 451,
    "अ": 452,
    "उ": 453,
    "घ": 454,
    "फ": 455,
    "ए": 456,
    "ष": 457,
    "ध": 458,
    "ठ": 459,
    "थ": 460,
    "इ": 461,
    "झ": 462,
    "ै": 463,
    "ौ": 464,
    "़": 465,
    "?": 466,
    "ढ": 467,
    "छ": 468,
    "ॉ": 469,
    "ृ": 470,
    "ओ": 471,
    "/": 472,
    "ऊ": 473,
    "ई": 474,
    "ँ": 475,
    "ऱ": 476,
    "ङ": 477,
    "ऐ": 478,
    ",": 479,
    "ञ": 480,
    "ऋ": 481,
    "ॅ": 482,
    "‘": 483,
    "’": 484,
    "-": 485,
    "“": 486,
    "ः": 487,
    "औ": 488,
    "९": 489,
    "”": 490,
    "ऑ": 491,
    "!": 492,
    "(": 493,
    ")": 494,
    "१": 495,
    "२": 496,
    ":": 497,
    "–": 498,
    "ॠ": 499
  },
  "id2piece": {
    "0": "<pad>",
    "1": "<unk>",
    "2": "<s>",
    "3": "</s>",
    "4": "<blank>",
    "5": "▁स",
    "6": "या",
    "7": "ें",
    "8": "▁क",
    "9": "▁आ",
    "10": "ां",
    "11": "▁प",
    "12": "▁म",
    "13": "्या",
    "14": "ता",
    "15": "▁व",
    "16": "ार",
    "17": "▁द",
    "18": "्र",
    "19": "▁ज",
    "20": "▁न",
    "21": "▁र",
    "22": "लो",
    "23": "▁ह",
    "24": "ाव",
    "25": "▁ब",
    "26": "ाच",
    "27": "▁ग",
    "28": "ाक",
    "29": "्ह",
    "30": "▁त",
    "31": "ान",
    "32": "▁अ",
    "33": "▁श",
    "34": "ाय",
    "35": "▁च",
    "36": "▁भ",
    "37": "ल्",
    "38": "▁उ",
    "39": "ात",
    "40": "्त",
    "41": "ाम",
    "42": "▁ए",
    "43": "▁कर",
    "44": "▁ख",
    "45": "ाल",
    "46": "▁ल",
    "47": "▁घ",
    "48": "नी",
    "49": "चें",
    "50": "▁एक",
    "51": "▁दि",
    "52": "▁फ",
    "53": "ली",
    "54": "▁म्ह",
    "55": "▁आय",
    "56": "सा",
    "57": "लें",
    "58": "र्",
    "59": "ेव",
    "60": "ल्या",
    "61": "ों",
    "62": "चो",
    "63": "ीस",
    "64": "ाग",
    "65": "ास",
    "66": "्व",
    "67": "िक",
    "68": "ुर",
    "69": "न्",
    "70": "▁प्र",
    "71": "ना",
    "72": "ांत",
    "73": "तात",
    "74": "गळ",
    "75": "्ष",
    "76": "ंग",
    "77": "िल्",
    "78": "ोव",
    "79": "री",
    "80": "▁य",
    "81": "ंद",
    "82": "▁आम",
    "83": "ंत",
    "84": "च्या",
    "85": "ाळ",
    "86": "ांव",
    "87": "कार",
    "88": "ित",
    "89": "ाज",
    "90": "▁सगळ",
    "91": "ाड",
    "92": "ेर",
    "93": "ाची",
    "94": "पाक",
    "95": "ेश",
    "96": "▁वि",
    "97": "्ट",
    "98": "ून",
    "99": "▁आनी",
    "100": "▁सि",
    "101": "▁सो",
    "102": "ीं",
    "103": "▁ता",
    "104": "▁मन",
    "105": "▁ध",
    "106": "▁सगळ्या",
    "107": "▁जा",
    "108": "ाद",
    "109": "ंय",
    "110": "ाचो",
    "111": "ंक",
    "112": "ले",
    "113": "▁बर",
    "114": "▁जाल",
    "115": "ीन",
    "116": "्य",
    "117": "ांग",
    "118": "ची",
    "119": "ोर",
    "120": "ावन",
    "121": "ीत",
    "122": "ाप",
    "123": "▁वच",
    "124": "▁आसा",
    "125": "▁लाग",
    "126": "▁पर",
    "127": "▁थ",
    "128": "▁सु",
    "129": "▁ना",
    "130": "ंड",
    "131": "त्त",
    "132": "िव",
    "133": "▁के",
    "134": "▁दिस",
    "135": "▁राम",
    "136": "स्त",
    "137": "▁आयज",
    "138": "ोड",
    "139": "▁व्ह",
    "140": "ेळ",
    "141": "▁इ",
    "142": "ेन",
    "143": "ाका",
    "144": "चे",
    "145": "▁आप",
    "146": "णव",
    "147": "▁पाव",
    "148": "िर",
    "149": "ेत",
    "150": "▁दु",
    "151": "▁गों",
    "152": "▁न्ह",
    "153": "स्",
    "154": "ती",
    "155": "▁आव",
    "156": "क्ष",
    "157": "णी",
    "158": "्द",
    "159": "ंब",
    "160": "▁काम",
    "161": "मा",
    "162": "▁म्हज",
    "163": "▁आश",
    "164": "▁दो",
    "165": "्यार",
    "166": "▁आस",
    "167": "▁राव",
    "168": "ंत्र",
    "169": "▁व्हड",
    "170": "▁लो",
    "171": "▁करता",
    "172": "यात",
    "173": "कां",
    "174": "साद",
    "175": "▁हो",
    "176": "▁मो",
    "177": "▁सा",
    "178": "▁सिं",
    "179": "▁स्व",
    "180": "को",
    "181": "▁सर",
    "182": "▁सिंह",
    "183": "▁पळ",
    "184": "ायक",
    "185": "ाच्या",
    "186": "▁घर",
    "187": "▁आशिल्",
    "188": "न्द",
    "189": "▁प्रसाद",
    "190": "ुल",
    "191": "▁रू",
    "192": "▁पय",
    "193": "▁मु",
    "194": "न्ना",
    "195": "▁चल",
    "196": "ीक",
    "197": "▁राज",
    "198": "शें",
    "199": "▁दीस",
    "200": "▁गोंय",
    "201": "कर",
    "202": "िस",
    "203": "▁आमी",
    "204": "टा",
    "205": "रि",
    "206": "यतात",
    "207": "▁उप",
    "208": "▁ये",
    "209": "▁वा",
    "210": "▁जाय",
    "211": "▁कु",
    "212": "▁कित",
    "213": "▁पड",
    "214": "िक्ष",
    "215": "ांच",
    "216": "▁को",
    "217": "ांनी",
    "218": "ुरग",
    "219": "▁झ",
    "220": "▁मह",
    "221": "त्",
    "222": "▁देव",
    "223": "▁दिसता",
    "224": "ांब",
    "225": "िश",
    "226": "▁सांग",
    "227": "▁खू",
    "228": "िन",
    "229": "रो",
    "230": "णें",
    "231": "ाब",
    "232": "तंत्र",
    "233": "▁चव",
    "234": "ताय",
    "235": "्याक",
    "236": "▁खूब",
    "237": "▁भुरग",
    "238": "ोवप",
    "239": "▁घेव",
    "240": "▁कितें",
    "241": "ंव",
    "242": "शीं",
    "243": "▁म्हज्या",
    "244": "ोंक",
    "245": "्री",
    "246": "रा",
    "247": "ला",
    "248": "▁मनयतात",
    "249": "▁उद",
    "250": "ोंकणी",
    "251": "▁पु",
    "252": "शी",
    "253": "ाट",
    "254": "ेक",
    "255": "▁स्वतंत्र",
    "256": "▁हां",
    "257": "▁आमचो",
    "258": "▁नि",
    "259": "▁दिव",
    "260": "श्ट",
    "261": "▁बरें",
    "262": "ावप",
    "263": "▁करून",
    "264": "▁ट",
    "265": "▁बस",
    "266": "▁दोन",
    "267": "यो",
    "268": "ेस",
    "269": "बीत",
    "270": "▁सोबीत",
    "271": "▁मार",
    "272": "▁नायक",
    "273": "▁करप",
    "274": "ेट",
    "275": "सो",
    "276": "▁सद",
    "277": "ंज",
    "278": "ण्",
    "279": "▁सक",
    "280": "▁ओ",
    "281": "▁कें",
    "282": "▁जावन",
    "283": "रण",
    "284": "▁स्वतंत्रताय",
    "285": "ेल",
    "286": "▁गे",
    "287": "ाळीस",
    "288": "ारी",
    "289": "वी",
    "290": "ांय",
    "291": "▁पावस",
    "292": "वें",
    "293": "ेच",
    "294": "▁साम",
    "295": "तालो",
    "296": "डप",
    "297": "रिख",
    "298": "न्द्र",
    "299": "▁तारिख",
    "300": "▁तो",
    "301": "्ठ",
    "302": "▁णव",
    "303": "▁मे",
    "304": "▁केंन्ना",
    "305": "▁सात",
    "306": "ेंच",
    "307": "्म",
    "308": "यान",
    "309": "रांत",
    "310": "▁म्हाका",
    "311": "▁ड",
    "312": "ल्यान",
    "313": "▁न्हय",
    "314": "▁लागता",
    "315": "▁कोंकणी",
    "316": "▁म्हण",
    "317": "वर",
    "318": "ेम",
    "319": "मान",
    "320": "▁घेत",
    "321": "त्तर",
    "322": "ुण",
    "323": "▁जाता",
    "324": "ेग",
    "325": "▁घेवन",
    "326": "कत",
    "327": "दी",
    "328": "▁हु",
    "329": "▁त्र",
    "330": "ोवचें",
    "331": "▁ठ",
    "332": "लीं",
    "333": "▁नाका",
    "334": "▁पि",
    "335": "ण्णव",
    "336": "▁साह",
    "337": "▁ति",
    "338": "▁भार",
    "339": "▁हांव",
    "340": "पी",
    "341": "भर",
    "342": "ेंव",
    "343": "्वर",
    "344": "ाचें",
    "345": "जो",
    "346": "द्द",
    "347": "▁पो",
    "348": "▁कोण",
    "349": "ल्ल्या",
    "350": "▁आशिल्लो",
    "351": "रप",
    "352": "▁आयलो",
    "353": "▁पं",
    "354": "▁जेव",
    "355": "▁आवड",
    "356": "ंबर",
    "357": "▁सिन",
    "358": "ेख",
    "359": "का",
    "360": "▁मेळ",
    "361": "▁सगळ्यात",
    "362": "▁अभ",
    "363": "▁वळ",
    "364": "▁सदांच",
    "365": "ाख",
    "366": "ूं",
    "367": "▁अशें",
    "368": "सठ",
    "369": "▁सव",
    "370": "▁करतात",
    "371": "▁खाव",
    "372": "मार",
    "373": "ाण",
    "374": "ूर",
    "375": "▁आपल्या",
    "376": "ति",
    "377": "लां",
    "378": "▁पुर",
    "379": "र्व",
    "380": "▁आयिल्",
    "381": "▁गण",
    "382": "मळ",
    "383": "प्",
    "384": "▁वच्",
    "385": "ळें",
    "386": "▁शिक्ष",
    "387": "▁वर्",
    "388": "▁हें",
    "389": "ेद",
    "390": "▁आसता",
    "391": "ेचाळीस",
    "392": "▁शिव",
    "393": "▁लोकां",
    "394": "च्",
    "395": "ीर",
    "396": "ाचे",
    "397": "ायण",
    "398": "▁सां",
    "399": "ंदर",
    "400": "ल्लो",
    "401": "▁काळ",
    "402": "्हा",
    "403": "चेर",
    "404": "▁अठ",
    "405": "▁ते",
    "406": "▁फकत",
    "407": "▁खेळ",
    "408": "▁तें",
    "409": "ंयशीं",
    "410": "ूण",
    "411": "▁मा",
    "412": "▁फाव",
    "413": "▁एकुण",
    "414": "▁सिन्हा",
    "415": "मर",
    "416": "्ण",
    "417": "▁",
    "418": "ा",
    "419": "र",
    "420": "्",
    "421": "ं",
    "422": "त",
    "423": "क",
    "424": "े",
    "425": "व",
    "426": "य",
    "427": "स",
    "428": "न",
    "429": "ल",
    "430": "ो",
    "431": "प",
    "432": "ी",
    "433": "म",
    "434": "च",
    "435": "ि",
    "436": "द",
    "437": "ग",
    "438": ".",
    "439": "ह",
    "440": "ज",
    "441": "श",
    "442": "आ",
    "443": "ब",
    "444": "ु",
    "445": "ड",
    "446": "ण",
    "447": "ळ",
    "448": "ू",
    "449": "ट",
    "450": "ख",
    "451": "भ",
    "452": "अ",
    "453": "उ",
    "454": "घ",
    "455": "फ",
    "456": "ए",
    "457": "ष",
    "458": "ध",
    "459": "ठ",
    "460": "थ",
    "461": "इ",
    "462": "झ",
    "463": "ै",
    "464": "ौ",
    "465": "़",
    "466": "?",
    "467": "ढ",
    "468": "छ",
    "469": "ॉ",
    "470": "ृ",
    "471": "ओ",
    "472": "/",
    "473": "ऊ",
    "474": "ई",
    "475": "ँ",
    "476": "ऱ",
    "477": "ङ",
    "478": "ऐ",
    "479": ",",
    "480": "ञ",
    "481": "ऋ",
    "482": "ॅ",
    "483": "‘",
    "484": "’",
    "485": "-",
    "486": "“",
    "487": "ः",
    "488": "औ",
    "489": "९",
    "490": "”",
    "491": "ऑ",
    "492": "!",
    "493": "(",
    "494": ")",
    "495": "१",
    "496": "२",
    "497": ":",
    "498": "–",
    "499": "ॠ"
  }
}