<pad>	0
<unk>	0
<s>	0
</s>	0
<blank>	0
▁स	-0
या	-1
ें	-2
▁क	-3
▁आ	-4
ां	-5
▁प	-6
▁म	-7
्या	-8
ता	-9
▁व	-10
ार	-11
▁द	-12
्र	-13
▁ज	-14
▁न	-15
▁र	-16
लो	-17
▁ह	-18
ाव	-19
▁ब	-20
ाच	-21
▁ग	-22
ाक	-23
्ह	-24
▁त	-25
ान	-26
▁अ	-27
▁श	-28
ाय	-29
▁च	-30
▁भ	-31
ल्	-32
▁उ	-33
ात	-34
्त	-35
ाम	-36
▁ए	-37
▁कर	-38
▁ख	-39
ाल	-40
▁ल	-41
▁घ	-42
नी	-43
चें	-44
▁एक	-45
▁दि	-46
▁फ	-47
ली	-48
▁म्ह	-49
▁आय	-50
सा	-51
लें	-52
र्	-53
ेव	-54
ल्या	-55
ों	-56
चो	-57
ीस	-58
ाग	-59
ास	-60
्व	-61
िक	-62
ुर	-63
न्	-64
▁प्र	-65
ना	-66
ांत	-67
तात	-68
गळ	-69
्ष	-70
ंग	-71
िल्	-72
ोव	-73
री	-74
▁य	-75
ंद	-76
▁आम	-77
ंत	-78
च्या	-79
ाळ	-80
ांव	-81
कार	-82
ित	-83
ाज	-84
▁सगळ	-85
ाड	-86
ेर	-87
ाची	-88
पाक	-89
ेश	-90
▁वि	-91
्ट	-92
ून	-93
▁आनी	-94
▁सि	-95
▁सो	-96
ीं	-97
▁ता	-98
▁मन	-99
▁ध	-100
▁सगळ्या	-101
▁जा	-102
ाद	-103
ंय	-104
ाचो	-105
ंक	-106
ले	-107
▁बर	-108
▁जाल	-109
ीन	-110
्य	-111
ांग	-112
ची	-113
ोर	-114
ावन	-115
ीत	-116
ाप	-117
▁वच	-118
▁आसा	-119
▁लाग	-120
▁पर	-121
▁थ	-122
▁सु	-123
▁ना	-124
ंड	-125
त्त	-126
िव	-127
▁के	-128
▁दिस	-129
▁राम	-130
स्त	-131
▁आयज	-132
ोड	-133
▁व्ह	-134
ेळ	-135
▁इ	-136
ेन	-137
ाका	-138
चे	-139
▁आप	-140
णव	-141
▁पाव	-142
िर	-143
ेत	-144
▁दु	-145
▁गों	-146
▁न्ह	-147
स्	-148
ती	-149
▁आव	-150
क्ष	-151
णी	-152
्द	-153
ंब	-154
▁काम	-155
मा	-156
▁म्हज	-157
▁आश	-158
▁दो	-159
्यार	-160
▁आस	-161
▁राव	-162
ंत्र	-163
▁व्हड	-164
▁लो	-165
▁करता	-166
यात	-167
कां	-168
साद	-169
▁हो	-170
▁मो	-171
▁सा	-172
▁सिं	-173
▁स्व	-174
को	-175
▁सर	-176
▁सिंह	-177
▁पळ	-178
ायक	-179
ाच्या	-180
▁घर	-181
▁आशिल्	-182
न्द	-183
▁प्रसाद	-184
ुल	-185
▁रू	-186
▁पय	-187
▁मु	-188
न्ना	-189
▁चल	-190
ीक	-191
▁राज	-192
शें	-193
▁दीस	-194
▁गोंय	-195
कर	-196
िस	-197
▁आमी	-198
टा	-199
रि	-200
यतात	-201
▁उप	-202
▁ये	-203
▁वा	-204
▁जाय	-205
▁कु	-206
▁कित	-207
▁पड	-208
िक्ष	-209
ांच	-210
▁को	-211
ांनी	-212
ुरग	-213
▁झ	-214
▁मह	-215
त्	-216
▁देव	-217
▁दिसता	-218
ांब	-219
िश	-220
▁सांग	-221
▁खू	-222
िन	-223
रो	-224
णें	-225
ाब	-226
तंत्र	-227
▁चव	-228
ताय	-229
्याक	-230
▁खूब	-231
▁भुरग	-232
ोवप	-233
▁घेव	-234
▁कितें	-235
ंव	-236
शीं	-237
▁म्हज्या	-238
ोंक	-239
्री	-240
रा	-241
ला	-242
▁मनयतात	-243
▁उद	-244
ोंकणी	-245
▁पु	-246
शी	-247
ाट	-248
ेक	-249
▁स्वतंत्र	-250
▁हां	-251
▁आमचो	-252
▁नि	-253
▁दिव	-254
श्ट	-255
▁बरें	-256
ावप	-257
▁करून	-258
▁ट	-259
▁बस	-260
▁दोन	-261
यो	-262
ेस	-263
बीत	-264
▁सोबीत	-265
▁मार	-266
▁नायक	-267
▁करप	-268
ेट	-269
सो	-270
▁सद	-271
ंज	-272
ण्	-273
▁सक	-274
▁ओ	-275
▁कें	-276
▁जावन	-277
रण	-278
▁स्वतंत्रताय	-279
ेल	-280
▁गे	-281
ाळीस	-282
ारी	-283
वी	-284
ांय	-285
▁पावस	-286
वें	-287
ेच	-288
▁साम	-289
तालो	-290
डप	-291
रिख	-292
न्द्र	-293
▁तारिख	-294
▁तो	-295
्ठ	-296
▁णव	-297
▁मे	-298
▁केंन्ना	-299
▁सात	-300
ेंच	-301
्म	-302
यान	-303
रांत	-304
▁म्हाका	-305
▁ड	-306
ल्यान	-307
▁न्हय	-308
▁लागता	-309
▁कोंकणी	-310
▁म्हण	-311
वर	-312
ेम	-313
मान	-314
▁घेत	-315
त्तर	-316
ुण	-317
▁जाता	-318
ेग	-319
▁घेवन	-320
कत	-321
दी	-322
▁हु	-323
▁त्र	-324
ोवचें	-325
▁ठ	-326
लीं	-327
▁नाका	-328
▁पि	-329
ण्णव	-330
▁साह	-331
▁ति	-332
▁भार	-333
▁हांव	-334
पी	-335
भर	-336
ेंव	-337
्वर	-338
ाचें	-339
जो	-340
द्द	-341
▁पो	-342
▁कोण	-343
ल्ल्या	-344
▁आशिल्लो	-345
रप	-346
▁आयलो	-347
▁पं	-348
▁जेव	-349
▁आवड	-350
ंबर	-351
▁सिन	-352
ेख	-353
का	-354
▁मेळ	-355
▁सगळ्यात	-356
▁अभ	-357
▁वळ	-358
▁सदांच	-359
ाख	-360
ूं	-361
▁अशें	-362
सठ	-363
▁सव	-364
▁करतात	-365
▁खाव	-366
मार	-367
ाण	-368
ूर	-369
▁आपल्या	-370
ति	-371
लां	-372
▁पुर	-373
र्व	-374
▁आयिल्	-375
▁गण	-376
मळ	-377
प्	-378
▁वच्	-379
ळें	-380
▁शिक्ष	-381
▁वर्	-382
▁हें	-383
ेद	-384
▁आसता	-385
ेचाळीस	-386
▁शिव	-387
▁लोकां	-388
च्	-389
ीर	-390
ाचे	-391
ायण	-392
▁सां	-393
ंदर	-394
ल्लो	-395
▁काळ	-396
्हा	-397
चेर	-398
▁अठ	-399
▁ते	-400
▁फकत	-401
▁खेळ	-402
▁तें	-403
ंयशीं	-404
ूण	-405
▁मा	-406
▁फाव	-407
▁एकुण	-408
▁सिन्हा	-409
मर	-410
्ण	-411
▁	-412
ा	-413
र	-414
्	-415
ं	-416
त	-417
क	-418
े	-419
व	-420
य	-421
स	-422
न	-423
ल	-424
ो	-425
प	-426
ी	-427
म	-428
च	-429
ि	-430
द	-431
ग	-432
.	-433
ह	-434
ज	-435
श	-436
आ	-437
ब	-438
ु	-439
ड	-440
ण	-441
ळ	-442
ू	-443
ट	-444
ख	-445
भ	-446
अ	-447
उ	-448
घ	-449
फ	-450
ए	-451
ष	-452
ध	-453
ठ	-454
थ	-455
इ	-456
झ	-457
ै	-458
ौ	-459
़	-460
?	-461
ढ	-462
छ	-463
ॉ	-464
ृ	-465
ओ	-466
/	-467
ऊ	-468
ई	-469
ँ	-470
ऱ	-471
ङ	-472
ऐ	-473
,	-474
ञ	-475
ऋ	-476
ॅ	-477
‘	-478
’	-479
-	-480
“	-481
ः	-482
औ	-483
९	-484
”	-485
ऑ	-486
!	-487
(	-488
)	-489
१	-490
२	-491
:	-492
–	-493
ॠ	-494
